1000000010000001
0000000011011111
0000000010111100
1000000010010100
0000000100101100
1000000011101110
0000000010011001
0000000011101100
1000000011111000
1000000000111001
0000000010011000
1000000001001101
0000000001010010
0000000010101011
0000000010110100
1000000011101100
1000000000011100
1000000100010111
1000000101000010
0000000000111011
0000000101011010
0000000011110011
0000000011010010
1000000010111010
1000000000101000
1000000011111110
0000000011011011
0000000001101000
1000000001100000
0000000000100101
1000000001001010
0000000010111101
0000000000100100
1000000010001010
0000000000010100
1000000010111100
0000000011101111
0000000010000111
0000000010100001
0000000011110010
0000000011110010
0000001000110100
1000000001000001
0000001100100101
0000001100000101
0000001001101010
1000000110101001
1000000000101100
1000000110110111
1000000000010001
0000000001111000
0000000001001010
0000000001111010
0000000100111011
0000000000110111
0000000011011110
1000000011001001
0000000010100001
1000000000101010
0000000010100001
1000000001110001
1000000110001011
1000000000010101
1000000110011010
1000000111010010
1000000101000011
1000001000000110
1000001001100011
1000001111100001
1000000111000011
1000010100001010
1000010011111000
1000001010100011
1000000111100011
0000000100011100
1000000010000000
1000001110110101
1000000111110111
1000001000110111
0000000010111110
0000001001110100
0000000111001001
1000000000000110
0000000001110110
0000000101010110
0000000010110100
1000000000011001
1000000110001000
1000001110010010
1000001011010111
1000010101111111
1000010000111100
1000000101001110
1000001001111001
1000001011111100
1000001101000010
1000000011010111
1000000100100110
1000010001110011
1000010001010110
1000001000100110
0000000010010000
1000001100011111
1000001101100100
1000001000111110
0000001010010000
0000000011100000
1000001011110110
1000000111000101
0000001010000000
0000010000011001
1000000101010110
0000000101001011
1000000001011000
1000000100011000
0000001000100010
1000001000011100
1000001101011011
1000001011000111
1000001101001101
1000001111101001
1000001110111110
1000011000001110
1000001010111001
1000001001010110
1000001110111011
1000001001010110
1000000110100001
1000000100101000
0000001110011111
0000000100100100
1000001100011100
1000000111100110
1000000011111000
1000000010100000
1000001000011100
1000001000110001
0000001000011101
0000000110101000
1000001010001110
1000000000110010
0000000011000100
1000000111000111
0000000001000110
1000001011011001
1000000010000001
1000000100110100
1000000110110101
1000000100010000
1000010000010010
1000000100100111
1000001100000011
1000010001111100
0000000001100100
0000000001000101
1000000110111011
1000000111001000
1000000101000100
1000001000110111
1000001011011111
1000000110101011
1000000001001010
1000001000110011
1000010000010111
1000010101010110
0000001010110000
0000000001010100
1000010111000011
0000000000100100
0000000000001100
0000010110011100
0000001001000010
0000010000001101
0000010100110110
0000000111100011
1000000100111100
1000000100100111
1000000110010000
1000000001011101
1000000011100001
1000000100100100
1000000001111111
1000000110001101
1000001001000110
1000001011110011
1000001100011010
1000001000010110
0000000001011010
1000001001011001
0000001001011010
0000000101010000
1000001011011101
1000001111010010
1000000111010100
0000000001001000
1000001010110110
1000000010100110
1000000011111101
0000010110111101
0000010011110000
1000000000010010
0000000010111111
0000000111000111
0000000100010110
1000000000101111
0000000001111010
0000000100111010
0000000110110011
0000000101110000
0000000001010100
1000001001000011
1000000001111001
1000000100101101
0000000001101100
0000000000101111
0000000111100100
1000000000110000
0000001001001000
0000001100010000
0000001110111011
1000000011001011
1000000011001010
1000000010001111
1000001010100100
0000010100110011
0000001110001001
0000011001000001
0000001001001011
0000000000101000
0000000010100111
0000000010111110
0000010001111110
0000001000101111
0000001001110101
0000000100011101
0000001001010101
0000001100011001
0000001001111100
0000001110111010
0000000111001001
0000010010010010
0000010001110110
0000001110000111
0000000101010101
0000010000000100
0000000110001011
0000001011001001
0000001100001111
0000000100010110
0000000000111100
1000001000101111
0000001010001110
0000000011101110
0000001100011001
0000001100001110
0000001001111111
0000001001000000
0000001101000000
0000000110001001
0000001100100001
0000001010100010
0000001001111111
0000000111100000
0000010000101100
0000010011101000
0000010011101010
0000010011010101
0000001101011101
0000001000110100
0000001110001110
0000010001111010
0000000100010101
0000001111011101
0000000010111100
0000001010111001
0000001001001100
0000001000000101
0000011011000110
1000000010010111
0000001100111010
0000001101000110
0000001011011100
0000011101110101
0000000011000110
0000010011011000
0000001011111110
0000001000110011
0000001110101010
0000001001111110
0000000110001001
0000001100100101
0000001111010111
0000001010111110
0000010100001011
0000001111101100
0000000110100100
0000000101111000
0000001001100001
0000001100110111
0000000110100110
0000000101110011
0000001000110000
0000001000000011
1000000001011101
0000000110010011
0000000110101111
0000001000000100
0000001110011000
0000001101111001
0000011101001100
0000000100101100
0000000110101101
0000001000010111
0000000100000110
0000000001000010
0000000101010001
0000000000011010
0000000000001111
1000000011001101
0000000111101011
0000000100010011
0000000001111011
0000000001001110
0000000000111011
1000001011100000
1000000110001011
1000000010100010
0000000000100110
1000000010101101
1000000100111000
1000000001100000
0000000011010010
0000001111010011
1000001100001000
1000001000111011
1000000001100000
0000000101110000
0000001000110011
0000000010011111
1000000100100111
1000000011101001
1000001101011101
1000000100101000
0000000010011110
1000000101011111
1000001000110010
1000000001101001
1000000000101110
1000000000100001
1000000110011001
1000001101001010
1000001000100001
1000001010011000
1000000110010111
1000000001100110
0000000000011001
1000001000010000
1000000100010000
0000000011011101
1000000110100111
0000000101111100
0000000101100100
0000000100001000
1000000101000101
0000000001011000
0000010010001010
0000010111001000
1000000111000000
1000010010001100
1000000110110101
1000000011110001
1000001000011100
1000001001111011
1000000110010000
1000000000101110
1000000101011010
1000000110111100
1000010000010011
1000000010101010
1000001011101111
1000000010111101
1000000111011000
1000000111001000
1000001010100100
0000000001111110
1000000001111001
0000000011010011
1000000000111000
0000001001001001
1000000110101111
1000000010001110
0000000110011100
0000000000011110
0000001000001110
0000011011100001
1000000101111100
1000010000101110
1000000011110111
1000000101111100
1000000100010110
1000000001111010
1000000011000111
0000000111010100
1000000111011111
1000000100010110
1000001001010101
1000000010010100
1000000000001101
1000010011011011
0000000000101100
1000000110100001
1000000100100001
1000000100100000
0000000000000001
0000000100110011
0000000010110100
0000010100000001
0000000001000001
0000010100010111
0000000101101100
0000000001100100
1000000011110111
0000001110010100
1000000010110011
1000001011001111
1000000100010101
0000000010010110
0000000001010111
1000000101100110
0000000111010111
0000000000001001
0000000000100111
1000000011001011
1000001101011001
1000001000001001
1000001001100101
1000001111001100
1000000101011100
0000000010110100
0000000011010011
1000000001111111
0000000110011101
0000000010110011
0000001000001010
0000011000000101
0000000101000100
0000000001000111
0000010011011010
1000000000000001
1000001001010011
0000000101101100
1000000011110010
1000010011000000
1000001001011010
1000001011011111
1000000010000001
0000000100101001
1000000001001110
0000000000000000
0000000101010100
1000000110110001
1000001100110111
1000000011100100
1000000010000100
1000000010010101
1000000001000000
1000000000000001
0000000001100100
1000000100111100
0000001011100000
0000000000000110
0000001000100100
0000001010100001
1000000001100100
0000011111011011
0000001111101001
1000000011101110
0000000001101011
1000000001111100
0000000010000000
1000000000111111
1000000000000111
1000000000001011
0000000010001001
0000000010000110
0000000000100110
0000000010000110
1000000110000000
0000000001001100
1000000100010001
0000000100100110
1000000010101100
1000000110110011
0000000100100011
0000000000011011
1000000101101100
0000000100001000
0000000110010110
0000000111010010
0000001010111000
0000000110000101
0000000000010010
0000000110100100
1000000101011100
0000001011000110
0000000000111001
1000000101010011
1000000100010000
0000000010100000
0000000000101010
1000000100111110
1000000100001011
0000000110110101
1000000000000011
1000000101111101
1000000111111100
1000001011101101
1000000110110100
0000000011010001
0000000000101111
1000000011001111
0000000000001001
0000000000111110
1000001100001010
1000000000000011
1000000010001111
0000000010101001
0000001000100101
1000001000001011
1000001101010011
0000001010100011
0000001001110000
0000000001101110
0000010111101010
1000000100011010
0000000110110010
1000000100000101
1000000110001101
0000000010011011
1000000001101101
0000001011000101
1000000000111010
1000000011101001
1000001010011000
1000000011001010
1000000111011000
0000000000101110
1000000000100001
0000000001001111
1000000001111001
1000000000101100
1000001000111011
1000000111011100
0000000000000000
0000000010100111
0000000001100111
1000010000110110
1000010100011110
0000001011011011
1000000000101010
0000000101011011
0000001001111010
0000001100010111
1000000011011100
1000000011100101
0000000001010110
0000000110111011
1000000001010011
0000001110110011
1000000000110000
0000000001100111
0000000101000010
0000001101001011
0000000011001010
1000000111000011
1000000011011101
1000001000010100
1000000101101110
1000000100111000
1000000010000101
1000000001010011
1000000000110101
1000000100011011
1000000111101001
1000010100011100
1000011000111001
0000000101010000
0000000011011010
0000000100000000
1000000011001100
0000001010101101
1000000001011011
0000001001111001
0000000001000010
1000000010000110
0000000001010100
0000000110110011
0000000101111111
0000000000111100
0000000100001000
0000000100011000
1000000001100101
1000000000111111
1000000010011101
1000000001010000
0000000001011000
1000001000111001
1000000010010010
1000001011000100
1000001000000010
0000000101000001
0000000000001101
0000001010101101
1000000001000000
0000010111100001
1000000010001110
1000000010001000
1000000000101111
0000000101010100
1000001100100101
0000000101011101
1000000100010100
0000001000101000
0000000011010000
0000000110011110
0000001100110100
0000000001001100
0000000000110011
1000000001000001
1000000000101100
0000001000000110
0000000111100000
1000000000011010
0000000100111000
1000000110010001
1000000111010000
1000001110000001
1000010011100011
1000000110000100
1000000100010111
0000000001111010
0000000101001111
0000000111000100
0000000101000111
1000000101011101
1000000011011110
1000010000110110
1000000110110000
0000001011000000
0000000100010110
0000001101000110
0000001100100110
1000000011011101
0000000111001101
0000000100001010
0000001100010001
0000000111010010
0000000001010101
1000000000111101
1000000100010001
0000000110011001
0000001000000010
1000000110011101
0000000101110111
1000000111111111
1000010001111000
1000001000100100
1000001010011100
0000000011101111
0000001000101111
1000001010010111
1000000000000110
1000000000000010
0000000101011001
0000000110101101
1000000110100010
1000000100011110
0000000000000110
0000000100100000
0000000110101000
1000000010100000
0000000000111011
0000000101001011
0000000011010100
0000001000111010
1000000010000101
0000000010110100
1000000001001010
0000000000001110
0000000110110010
0000010000101010
0000010001010000
0000001010010101
0000000111001111
1000001001111101
1000001010001101
0000011001100000
1000001011111001
0000000000101100
1000000100000001
0000000010111110
0000000011010000
1000001100000001
0000001110111010
0000000101000110
1000001101010010
1000000110011111
0000000011100011
1000001010100011
1000000111000001
1000000101101101
1000000011011011
0000000001101001
1000001010100000
1000000100000100
1000000011110111
0000000010000001
0000001001111001
0000000101111111
0000000111100101
1000000001100110
0000010000110001
0000010100101010
0000000110101010
0000010110111001
0000000010110110
0000000110011110
0000000101011100
0000000000111101
0000000010010100
0000000000101010
0000000101101110
1000010010100100
1000010011111011
1000010011111000
1000001001000100
1000000011001100
1000000001100011
1000000100000100
0000000001001001
1000000010101100
0000000011110001
1000000111011000
0000000000001011
0000000001000110
0000000010100111
0000000000100000
0000001001111010
1000000111100111
1000010110001000
0000000001011000
0000000011000101
1000000011010101
1000000100001011
1000000000011110
0000000100111011
0000000000000100
0000000100000100
1000000100011111
1000000010100100
0000001000001010
0000001100110100
1000000010011111
1000000100000101
1000000101100001
0000000101111101
0000000101011100
0000000000101000
1000000010100100
0000001101010001
0000000000101101
1000001011000111
1000001101111001
0000001000011111
0000000000011110
1000000000100101
1000000000100000
1000001000010001
1000001010000010
0000000101111111
0000000010110011
0000000010001111
1000000011111000
0000000010000101
