0000000101001001
0000000100101011
1000000000001010
0000000000101100
0000000010111000
0000000100011000
1000000011000101
0000000000000001
0000000010000110
1000000011001000
1000000001100011
0000000010101011
1000000101000111
0000000011100111
1000000010001101
1000000000010101
1000000001011000
0000000011000000
0000000000001000
0000000001010001
0000000100010101
0000000010010101
0000000000000011
1000000011111101
0000000011010100
0000000010010001
0000000011101001
1000000001110110
0000000000010010
0000000011001101
1000000011010101
1000000010011001
1000000101010101
1000000110010000
1000000010110010
1000001001101011
1000000001111110
0000000010001110
1000001001100101
0000000100110011
0000001010100110
0000001111011100
0000000101110100
1000001111001010
0000001000010110
0000000011000100
1000001111001010
1000000110010110
1000000110000110
1000000011000110
1000000110010101
1000000001101010
0000000000011100
0000000011111100
1000000101010111
0000000010010010
1000000001011000
0000000000101111
1000000000110011
0000000111101100
1000000010001011
1000000010011001
1000000100011110
1000001010010000
1000010000011110
1000001110011001
1000000010110011
1000000101011110
1000001000111101
1000011000010010
1000011101010100
1000010110100111
1000001110110011
1000000110011011
1000000000010110
1000001110111001
1000000110110011
1000000101000011
0000000011011010
1000000011100100
1000001010000000
1000001100101101
1000000000001011
1000000100001010
0000000000100011
0000000010110000
1000000101011111
0000000010111000
1000001100101101
1000010110010000
1000001111000110
1000001011010100
1000001000110000
1000001001010011
0000001001011010
0000000101100110
1000001011100000
0000001101000011
0000001001110001
1000000110011011
1000000010111101
0000000001010011
1000000010110101
0000000010011110
0000011010101010
0000001100110010
0000000101000010
0000000111011010
1000000100110110
0000001011101101
0000001101001100
1000000000100011
1000000000101100
0000000010100111
1000001000111011
1000001110000110
1000010110011011
1000010111111001
1000010100001010
1000001111000010
1000001011100100
0000000100101110
1000000001010011
1000000000010000
0000000001001011
1000000101100010
0000000010000011
0000000000110000
1000000000011100
0000000101101110
0000000111010011
1000000000010100
0000001100100101
0000001010001011
0000001101011001
0000000111011001
0000010000111110
0000001101101111
1000000001001111
1000000100001101
0000000100110000
0000000001001110
1000010011001101
1000001101100000
1000100000111000
1000101000110101
1000010011011011
1000000110111000
1000000001111100
0000001001101011
0000001001100001
0000000101000000
0000000000000111
0000000100010110
0000000101110110
1000000001101000
0000001000111101
0000001010100000
0000000011101111
0000000011011000
0000000101100001
0000000100010110
1000000110100111
1000001101010101
0000000001011100
1000000000101111
0000000000000001
1000001101101010
0000000001010111
1000000000001101
0000001011000010
1000000100111101
1000001100101001
1000000110111100
1000000110111101
0000000010001010
0000000111100110
0000000001110111
0000001001001010
0000001000111101
1000000000001110
0000001010011100
0000000111111000
0000001001101011
0000001010111000
0000001100000011
0000001010100110
0000000100010101
0000000101000010
0000000100111110
0000000001100001
0000000000101000
1000000011010101
0000000000011000
0000000110000101
1000000100101010
0000000100111101
1000010001010110
0000000010010000
0000001001011011
1000001011000011
1000000001101011
0000000001111101
0000000110001010
0000001001100100
0000001111111000
0000000101000110
0000000001001001
0000000011111010
0000000110111001
0000000010110010
0000001111010100
0000000111111010
0000000100100100
0000001110111111
0000000001011100
0000000001110001
1000000011110011
0000000110010111
0000001001010101
0000001000101101
1000000010000010
1000000110011111
1000000010110011
1000000010010111
1000000011011011
0000000100011011
0000000101000000
1000000011011101
0000000001010010
0000001010101010
0000000100111001
0000001011110000
0000000111110000
0000000000011000
0000000010000110
0000000001111010
0000000110001110
0000001010000110
0000000101110101
0000001011001110
1000000000101010
0000001010001011
0000000011101011
0000000101000101
0000000101001011
0000000100111100
0000001000011111
0000000110101001
0000000011011111
0000000101000101
0000000101011001
0000000011010011
1000000001111000
1000001000110001
0000000001101001
0000000000001100
0000000000111101
0000001000011101
0000000001011011
0000000110111100
0000001011011100
0000000010111100
1000000001101010
1000000101010010
1000000011100011
1000000010111101
1000000001110110
0000000111011100
0000000010011100
1000000111100011
0000000111111011
0000001101010010
0000001011000101
0000000001001000
0000010101000110
0000001100111110
0000001110100100
0000001000010110
1000001001010110
1000000001011100
1000000011111110
1000000010110110
0000000000111010
0000010001111010
0000001001111001
0000001001001000
0000000110010101
0000000100001110
0000001100001101
0000000110011000
0000000000100000
0000000001111011
1000001000001101
0000000000011011
1000000100100110
0000000001110111
1000001010111011
0000000100010111
1000000001010011
0000000010000000
1000000011011100
0000001110101101
0000010110011011
0000000110010001
1000000100010001
1000000111011110
1000001100111101
0000000001100100
1000010111000011
0000000001001011
0000000001110101
0000001110001010
0000000110000000
0000001111000100
0000001101010100
0000000110010101
0000001001000111
1000000100010100
0000000000111111
1000000011001000
1000000001010010
1000000001011110
1000000011011011
1000001000101110
1000000101100011
0000000000010000
1000000000000000
1000000011000011
0000001010010111
0000000110000101
0000001110110000
0000010111101100
0000000001101010
0000001010011011
1000010101011001
0000000010001001
1000001000010101
1000000000010001
0000001001111000
0000001001110100
0000001001111101
0000010011111011
1000000011000011
1000001011101000
0000000001011101
1000001100011010
1000001100001100
1000000111000101
1000000110110011
1000000001001111
0000000000010100
0000000000000011
0000000101111110
1000000011000110
0000001010011001
0000000100000011
0000000011101000
0000000000111011
0000010011111101
0000010000001000
1000000111001101
1000000000010000
1000010000010011
1000000111100100
1000000100010001
1000000011010001
0000001010000011
0000001000111011
1000000101010101
0000000110001010
1000000010010101
1000000010111001
0000000000101110
0000000001100011
1000000000001011
1000000000011110
0000000000001101
0000000000100010
1000000010011010
1000000101101100
1000000001101000
0000000010011111
0000001110000000
0000000000111100
0000000010101000
0000001011110000
0000001001011001
1000001010101000
1000000111111000
1000001000010101
1000000110111001
0000000011101001
1000000101011100
1000001111011011
1000000101100010
0000000110011101
0000001001011101
1000000000111110
1000000010111110
1000000001011101
0000000010010001
0000001010111000
0000000101100000
0000000010101111
1000000001110001
1000000100111001
1000000010111000
1000000110111100
0000000011110010
0000001100110001
0000000101110010
0000000110111000
0000001010010000
0000000100111011
1000000101010110
1000000000000101
1000001101110010
1000001000010010
1000000101101010
0000000010100100
1000000100001101
1000011111010011
1000010010011011
0000001001000111
0000010011101101
0000010000010100
0000001100010010
0000000110110000
0000000101000110
1000000001100101
1000000101011010
1000001000101001
1000000000111101
1000000100100011
0000000001010000
1000000011010110
1000000000011000
0000000011011011
0000000000100001
1000000000000100
1000000000100000
1000000011010000
1000000100011001
1000000011111100
1000000010010111
1000010000111011
1000010001111111
0000000000010001
0000000001001111
1000010001101111
1000000111001101
0000000001010111
0000001001111100
0000001011010110
0000001001001001
0000001100001001
0000000110110100
0000001000100100
1000000010001111
0000000011010100
1000000011001000
1000000010001001
0000000011100010
1000001001011011
0000000000010101
1000000000000000
1000000010110110
0000001010100111
1000000111101101
1000000101010000
1000000111000011
1000001101100100
1000000110101011
1000001110110111
1000001010111110
1000000100101110
1000001000101001
1000001110101111
0000001110001011
0000001101001110
0000000111001111
0000001111001100
0000001011111011
0000001101100111
0000001110100111
0000001001111011
0000001000110010
0000001001110000
0000000101011100
1000000010001100
1000000011101011
1000000010000010
0000000100010010
1000001101100010
0000000001111001
0000000110001011
1000000011100001
1000000011111100
1000000011011001
1000000101110110
1000010100011000
1000001101100000
0000001001111101
0000001011011001
0000000001010000
1000010011000010
1000000011110111
1000000011110010
0000001010111101
0000001010011111
0000001001000011
0000000111011101
0000000101110110
0000001100000010
0000001101100001
0000000101110000
0000000100111010
0000000001101001
1000000011110001
0000000010100101
1000000000001011
1000000011110100
0000000000001010
1000000100000001
1000001001001101
1000000000010110
1000000010111110
1000010001111100
1000011110011011
1000000101100010
1000001100111011
1000000100100110
0000000011111100
1000000011010001
1000001001101110
0000000000000011
0000001110110101
0000001000110101
0000000001100011
0000000101010001
1000000000110001
0000000110111010
1000000100011000
1000000100000000
1000000000010100
0000000010111111
1000000001010110
1000000011100111
0000000100110111
1000000111011010
0000000001011110
1000000000001000
0000000000100000
0000000111010100
1000001110011010
1000010111101110
1000100001100001
0000000101001011
1000000011001010
1000000100111100
0000000111010101
0000000111110011
0000000001110000
0000000000011110
0000001101110011
1000000100111101
1000000001100100
0000000101011110
0000000000000001
1000000000100000
1000000111010101
1000001111011001
1000000110010100
0000000000111101
0000000010000000
1000000001001000
1000000001101011
1000001101011101
0000000101010110
0000000110000110
0000000010100000
0000000011000110
1000000100110100
1000010010000101
1000000110000110
1000001001100110
1000000101110110
1000000110010111
1000000011010101
0000000000001010
0000000100000101
0000001000101010
0000000011011010
0000000111000001
0000000110000101
0000000000010010
1000000000111101
1000000110100011
1000000110101010
1000000101110100
0000000000011100
0000000110101101
0000000001001000
1000000001011000
1000000010100100
1000000010010011
1000000001000001
0000000000001110
1000000100000010
0000000000110011
1000000111001110
1000001011010100
1000000011001111
1000000111100000
1000000011010001
1000000010110101
1000000000110001
0000000111010110
0000000000001100
1000000000010000
0000000000011100
0000000100000100
0000000111010111
0000000011101100
0000000100011100
1000000010000011
1000000010000101
0000000010111010
0000000010100110
0000000111001110
0000000010110110
0000000100110000
1000000010010110
0000000101000110
1000000011000100
1000000011110110
1000000111011111
1000000001110011
0000000011010110
0000000111010010
0000000100001110
1000001010000111
1000000100000000
0000000010101011
1000000011001100
1000001011000000
0000000011110011
1000000001111010
0000000001100011
0000000100111010
0000000000010001
0000000000011011
1000000100110101
1000000000010111
0000000010100110
0000000011110000
0000000111001000
0000000101100100
0000000011111011
0000001000000010
0000000100111110
0000000011011001
1000000100111000
0000000011011010
1000000000000110
0000010110000110
0000001001010110
0000000101001010
1000000101010011
1000010001100000
1000000000111100
1000000001100111
1000000000011001
0000001000011000
1000000101110010
0000000100111110
0000000100111101
0000000010101110
0000000010111000
1000000011110111
1000001010011011
0000000011010111
0000000010000000
0000001011101011
0000010010011111
0000000100011000
0000000110011111
0000001010100000
1000000001101011
0000001000010010
0000000110010100
0000001111001111
1000000000110100
0000000010000001
0000001101101011
1000000001010100
1000011100000111
1000001010001111
0000000011110101
1000000101010101
0000000001000001
0000001100101100
1000000011100100
1000001111101001
1000001100111110
0000000101111000
0000001000001001
0000000000111110
0000000010111110
0000001010011111
0000000010010010
1000000100101101
0000001101001010
0000001011111001
0000001010101110
0000010000100001
0000001111010011
0000001101000111
0000010110100100
0000010101110010
0000001001110111
1000001111010011
1000000001011101
1000000110111111
1000010011101010
1000001110111111
1000000001010001
0000000011110111
0000000101000111
1000000100111100
0000000000001001
1000000110101110
1000001001001010
1000000101101011
0000011001101010
0000010110111111
0000001100000001
0000010100010010
0000010001110110
0000010111000000
0000000111100000
0000011010111100
0000001001100100
0000011110100111
0000011001111100
0000010010001100
0000000101001111
0000010001011000
0000010001100000
0000010001011001
0000001011011101
0000000100101110
1000000011000011
0000000001011101
1000000001001110
0000000010000000
1000000100010111
1000000100010001
0000000100011010
1000000010000110
1000010011011001
0000000001010000
0000001100001110
0000001000000000
0000001011001011
0000000100010101
0000000110111010
0000010100101111
1000001000101111
0000010101000000
0000011001010000
0000001101011110
0000001001010001
0000001000011011
0000000110011111
1000000011110111
0000000000010110
0000000010101000
1000000110101101
0000000100101100
0000000000100111
0000000101010111
1000000000000001
