1000000100010010
1000000001101110
0000000010011110
0000000011011110
0000000010001111
0000000001110010
0000000010100000
1000000010111011
0000000100110001
1000000001110110
1000000010100001
1000000100111111
1000000110001011
1000001001110111
0000000001010101
1000000000110100
1000000000100101
0000000100110011
1000000010100110
0000000001110011
0000000100011110
0000000010110101
1000000100111000
0000000000000001
0000000000100000
1000000011100001
1000000000000001
1000000001001001
0000000100110101
1000000000001001
0000000011000110
0000000011010110
1000000010110110
1000000000100001
1000000010111001
1000001010100101
1000001100001111
1000000111100010
1000001011110111
0000000001110111
1000000010111000
1000000001010001
0000001011010001
1000000001000010
1000000000100000
1000010000001100
1000010011100100
1000010000111100
1000001110001011
1000001001100101
1000001011000010
1000000101110000
0000000010111001
1000000000110100
1000000001000100
1000000100101011
0000000000011110
1000000001111001
0000000011000101
1000000001010000
1000000010011101
0000000010100010
1000000111101101
1000001110001010
1000001000111101
1000001001111011
1000001100110001
1000001101001111
1000011110110101
1000001011001111
1000011011110111
1000011101010100
1000000111010101
1000000100000010
1000001010111111
1000100000010101
1000010010000010
1000001100100110
1000001011111000
1000010010001001
1000001100001100
1000001100110100
0000000011111111
0000000000111011
1000000100000111
0000000000101100
1000000000001000
1000001100100010
1000001010100010
1000010101100001
1000011010101111
1000011101011010
1000001101011001
1000010000010011
1000001001110111
1000010000100100
1000001111000100
1000100000100101
1000100010010101
1000010010100001
1000010001101100
1000000010100100
0000001101101011
0000001001111110
0000000111100111
0000001011010010
0000001001011111
1000000100010101
1000000010100011
0000001010110100
0000000011000011
1000000100111110
1000000010011001
0000000000111001
1000001100111110
0000000011100100
1000001010101010
1000010010111000
1000100101100001
1000001100001111
1000011011000110
1000010110011101
1000010111010001
1000011000111111
1000001011100000
1000001000100011
1000010010110100
1000000110000000
1000001100100001
1000000101001010
1000000011111111
1000010001001111
1000000011100101
0000001100100000
0000011010000010
0000010101100100
0000001010100100
0000011000010010
0000001010111100
1000001000101100
0000000101010110
0000000011100011
1000010011000000
1000010001110001
1000011010110110
1000000110001011
1000000011111110
1000000011001101
0000000100001011
0000001000001000
1000001011101100
1000001001101000
0000000001001100
0000000110100011
0000000100010101
1000000011111100
1000000100100101
1000000000101000
1000000000110111
1000010001010111
1000001110000110
0000000000011110
0000000000001010
1000000001001011
0000010010011111
0000000101100010
0000000010111011
1000000100100111
0000000100110100
1000000001111000
0000000110001011
0000001001101001
1000000110100011
1000000001010110
1000000010110001
1000000000110111
1000001001011001
0000000000010010
0000001010100001
0000000111101001
0000000100001111
0000001001100101
1000000001110000
0000000010000000
0000000001010110
0000001100001001
1000000011101111
1000000001101010
1000000101011110
0000000101011100
1000000010110011
0000000010100111
1000000011001101
1000000010010101
0000000101110010
1000001011001001
1000000010001010
1000000101110011
0000010010010010
0000010111000100
1000000011111101
1000010100010110
0000000000100011
1000000100100010
1000000000111110
0000000010000011
0000000011010001
0000000011011110
0000000001001010
0000000100001100
1000000100110001
1000000100101110
0000000000101010
0000000000111010
0000000101101000
1000000101011001
0000000001011100
1000001001111011
1000000010011110
0000000111100010
1000000011000100
1000001010101101
1000010010011110
1000001001111001
1000010100111001
1000000000100001
0000001010001000
0000010001000110
1000001000000101
1000000111110000
1000000010011110
0000000000000010
0000001101010100
0000000010101101
0000000100011101
0000000000110000
0000000010111101
1000000001011001
1000000100111111
0000000001111110
0000000101111001
0000000000111101
0000001000101110
0000000010110110
0000000101110011
0000001001000100
0000000011000100
0000000001010010
0000000111011100
1000000110001110
1000010011011111
0000001001011101
0000000001101101
0000001110110001
1000000100101100
0000000010100111
0000001011011011
1000000011001101
1000000000000000
0000000100100100
0000000101101101
0000000010000011
0000000111011110
0000000011010101
1000001011100001
1000000010110010
1000000000011011
1000000000100000
1000000100010010
0000000101010011
0000001101101100
0000000011001101
0000001000011101
0000000101010010
0000000110000000
0000000111010001
1000000100011010
1000000000011011
1000001011100000
0000001100100111
0000001011011110
0000000101100111
0000000100001001
0000000001100001
0000001010110101
1000000001000000
0000000010111101
1000000011100000
0000000011010000
0000001000110100
0000000010011111
1000000000100100
1000001001011010
0000000011001110
0000000100001100
1000000001000000
0000000111000000
0000000110011011
0000001001111010
0000000110001111
0000000111110000
0000000001011101
0000000101111101
1000000110100010
1000001010001100
1000000000101111
1000000111000110
0000000011110111
0000001110000100
1000000110101101
0000011001101100
0000000100110100
0000000010000001
1000000010100110
0000000100111110
0000000101100111
0000000000100001
0000000101101011
0000000111111010
0000000010110100
0000000000000101
0000000101100111
0000000110110101
0000000110100111
1000000001101100
1000000000101010
0000000011110000
0000000011011101
0000001011001011
0000001000110011
0000000101100110
1000000010111001
1000000011001100
1000010011010010
1000001000010110
0000000111010100
0000000011011001
0000001101100110
0000001110110101
1000000101100010
0000000000011000
1000000000011110
0000000011101000
1000000011100110
0000000011000011
1000000011100111
1000000110010000
1000000100101000
1000001011001001
1000000100011000
0000000010001111
0000001000000101
0000000100111110
0000000100110011
0000000100000001
0000001000001010
0000000000100000
1000000010001001
1000001001001000
1000000010010101
1000010010111111
1000001011111000
1000001010001110
0000000100111111
1000001000010011
0000000000110101
0000011001001111
1000000101110010
0000001000100001
1000001001101011
1000000010101011
0000000110000000
0000000110000010
0000000010010010
1000000011001111
1000000001011111
1000001010000101
1000000011101100
0000000010000110
0000000110110011
0000001010000001
1000000010111001
1000000001100000
0000000000011101
1000000001010011
1000000010111100
1000000111010001
1000001101011110
1000010001001100
1000000011110001
1000010000111001
1000001101101011
0000000001110101
1000000000110011
0000010101010001
1000000010011001
1000000001011100
1000000111110000
1000000111100101
0000000001111101
0000000111101000
1000000011011111
0000000111101111
1000000010111110
1000000101110001
1000001011010011
1000000011010111
0000000001110000
0000000001111000
0000000000010101
0000000100010010
0000000110100001
0000000111010010
1000000100101000
1000001101101100
1000000101011111
1000001011001101
1000010010010001
1000011001010111
1000000101001000
0000000001101011
1000001010000101
1000000011011011
0000000001110101
1000000010011110
1000000001011000
0000000100100110
0000000000101101
0000000011101011
0000000100011001
1000000001000000
1000000000010001
1000001100101111
1000000010100011
1000000111001011
0000000001101011
0000000010111101
0000001011110111
0000001001010000
0000000110001010
0000000001010001
0000000000100001
1000000101100011
1000000001110110
1000010001101011
1000011010010011
1000010100011010
1000001010110000
1000000000110001
0000000011001101
1000000011010110
0000000011011011
0000000110000100
0000000010001111
1000001001010101
0000000001100111
0000000010011001
0000000110001111
0000000010101011
1000000000001011
1000000010010100
0000000011111000
1000000000010001
1000000010100000
0000000001001111
0000001001111011
0000000101100111
0000001000010101
0000000110010010
0000000001011101
0000000000100011
1000000111010110
1000000111010110
1000011100011101
1000010110101001
1000010001111011
1000000011110011
1000000010011001
1000001011010010
1000000111111011
1000010001111110
1000000111000010
1000000100111001
1000000000011010
0000000001110011
0000000011110110
0000000111100010
0000000011100000
0000000101100101
0000000000111000
0000000100011111
0000000100101010
0000000001101001
0000001010001000
1000000000111001
0000000011110011
1000000001011110
1000001000100100
0000000000111011
1000010101101001
1000000111011011
1000100011001010
1000011100001100
1000001010001100
0000001110111011
1000000101010111
0000010000011111
1000010101100000
1000011000110010
1000000111000000
1000000100100100
0000000011001110
0000000110111010
0000001000111011
0000001101100011
0000010000001001
0000001001001111
0000001100100111
0000000101111101
1000000011001101
0000000101010001
0000001000111000
0000000010001000
1000000000001110
0000000100110110
1000000011011010
0000000001011101
1000011000101000
1000100101101001
1000010111101111
1000010001111101
1000000110001111
1000000011011000
0000010000101100
0000001100110011
1000010101010101
1000010011011011
1000001101000100
1000000010100001
1000000010101001
0000000000000100
0000000010000010
0000000000100110
1000000011101110
0000001011011010
1000000100111000
0000000000111101
1000000111101010
1000000010000001
0000000111011110
1000000011101001
0000000100101011
1000001000010110
1000000000001100
1000010000000001
1000010110000011
1000011011100000
0000000010011111
1000011000001011
1000001100000110
0000000001000100
0000000010010001
0000000001000001
1000010101010000
1000010110000101
1000000111111011
1000001111101101
1000010000100001
1000001110000001
1000001101100001
1000000101101111
1000001011010011
1000000111100000
1000000001010001
1000000110001101
1000000000011000
1000000010100000
0000000101110001
1000000101101010
1000000011010011
1000001001000111
1000010011000100
1000001001111100
1000000100000101
1000001011011011
0000001101000101
1000011110101101
1000000000101000
1000000111100001
1000000001110000
0000000001000000
1000010010000011
1000001111010100
0000000000001110
1000001101010101
1000010100010011
1000001100010100
1000010010010000
1000001100100111
1000000110110000
0000000000111001
1000001000100101
1000000111001011
0000000011001111
1000000011111010
1000000000011001
1000000101001000
1000000111111100
1000001000001100
1000000110101111
0000000000000101
1000010101101001
0000000001110111
0000001110000101
1000011000111011
1000000010000100
1000000111001100
1000000110010101
1000001010110010
1000011010100110
1000000111101000
1000000010001110
1000000000101010
1000000100110100
1000001001010000
1000001000000001
1000000110001111
1000001101001010
0000000010100101
1000000010100000
1000000010000111
0000000000111101
0000000000111110
1000000101011010
1000001100101101
1000001100110001
1000001000110101
1000001110001111
0000000011011010
1000000010010110
0000000001101010
0000001010101111
1000000010110111
0000000101100000
1000000010000111
1000000000100110
1000010000110111
1000100010111001
1000000111011001
1000001000000010
0000001101101011
0000000100010010
1000000100011110
1000001011011111
1000000100110100
1000000110001001
1000000100111110
1000000001100010
1000000110001100
1000000001001011
1000000001001011
1000000110000011
1000010100111111
1000001000011110
1000001000101100
1000001000011110
0000000010000000
1000000000110100
1000000100101111
0000000100011001
0000000010110000
0000000001011001
0000000100101111
0000000001001110
0000001010100110
0000000100111001
0000000001101100
0000001110101110
0000001011011000
0000001100101001
0000000001111110
1000000101111011
0000000001111011
0000000001011101
1000000010011000
0000000110101010
0000000000101001
0000000001110101
1000000101011001
1000001100110111
1000001010000000
1000000001001001
1000000010011001
1000000100101000
1000000010110110
0000000011011111
1000001110011011
1000010000010001
1000001101010000
1000000100111101
1000000100101110
0000000000000000
1000001011011100
0000001101010110
0000000111100010
0000000010100111
1000000011010111
0000000010011001
0000000010110011
0000001110100011
0000000011100101
0000001010101011
0000000010001101
0000001001000001
0000001011001100
1000000000100111
0000000101101001
0000000001011111
1000000010010111
0000000010110000
1000000100000001
0000000001001111
0000000100100110
0000000101011011
0000000110110110
1000000111111010
1000001001101000
1000000011000100
0000000001101110
1000000011001001
1000000100101100
0000000111011111
1000001111001011
1000001101011001
1000000100101011
0000010100110000
0000010011010010
0000010111111001
0000001001000001
1000000010001010
1000000010101110
0000000100111010
0000010100011001
0000000011001010
0000001010110100
0000001101001101
0000001010111111
0000010011110101
0000010011111100
0000000011010111
0000010101110111
0000000000011101
0000000111111011
0000000010011100
0000000010000101
1000000011110010
0000000100100011
0000000101001110
1000000001101011
1000000001101000
0000000110101111
0000001100001100
0000001000110110
0000001001100111
0000010000001111
0000001011100111
0000001101100100
0000001011110010
0000000101101000
0000001010101001
0000011010110000
0000010001011001
0000001010000110
0000011101010101
0000010110010000
0000001110011100
0000001100011000
0000001111000010
0000001111100111
0000000111001100
0000000011101110
0000000100000010
0000000011000110
0000000010100011
