0000000010101000
1000000000110100
1000000101000010
0000000001111010
0000000100001001
1000000000000011
0000000100111011
0000000001000000
0000000001001110
0000000001011110
0000000011111111
0000000100110011
0000000001111111
1000000100100011
0000000010111110
1000000010101100
1000000101000011
1000000101011011
0000000001010101
1000000011001110
0000000100110101
1000000101011000
1000000100111100
0000000000011111
1000000000011000
0000000011001101
1000000011111110
1000000011011010
1000000100110001
1000000011001000
0000000101011010
0000000000111011
1000000000110110
0000000000001110
1000000101110011
1000000100110111
1000001010111011
1000001100010101
1000000111110100
1000001001110010
1000000101000110
1000010010011010
1000010101001000
0000000010000101
1000000111010111
0000000000011011
1000001110001111
1000001001001111
1000000111010101
0000000010111111
1000000001100110
1000001000011100
1000000000000111
0000000100100000
1000000010100111
0000000100001100
1000000010001000
1000000001001101
0000000011001011
1000000011000111
0000000110001011
0000000000001011
1000000110110101
1000001110001000
1000010011000100
1000001001001111
1000000011101100
1000000010001100
1000010100000010
1000011010011101
1000011111011001
1000010100101111
1000010011100110
1000000000111100
1000000001101101
1000001000100100
1000001100000100
1000001010111001
1000001110111000
1000000110010001
1000000100000110
1000000111100011
0000000011000111
0000000011111000
1000000011010101
0000000100110101
0000000001101111
1000000011110111
0000000110010110
0000000011000111
1000001000100011
1000010010100100
1000011001011101
1000010010000011
1000001010101111
0000000011011100
1000001000100110
1000010001100111
1000001000010000
1000001110001001
1000010110011000
1000000001010011
0000000100111011
1000000100010000
0000000010111000
0000000110111011
0000000101111111
1000000111101100
1000001001100100
1000001110000010
1000001101000100
1000000010101101
1000000000011101
0000000010001001
1000000000111110
0000001110011010
0000000000000000
1000000011101010
1000000110011001
1000001101101010
1000010100001101
1000010111000100
1000000011001111
0000000111000110
0000000011100000
1000000100011000
1000001011101101
1000000001000111
0000000010011000
1000000011011011
0000000100001110
0000000101110011
0000000000101111
0000000110011101
0000000001011001
0000001010111110
1000000101110000
1000001000000110
1000000110111111
1000001101101000
0000000101001111
1000000010011011
0000001001111001
0000001001111011
1000000100010001
0000000011000100
0000000001011000
1000000010010101
1000000100111100
1000000000100110
0000001001011101
0000000011110110
0000000110100111
1000000110101110
1000000110111100
1000000001101010
1000000010001110
0000000100011001
1000001101011110
1000001011011101
0000000000101001
1000000100110111
1000000001001101
0000000011011110
0000000000110010
0000000001010011
1000001111111110
1000001101011011
1000000011011100
1000000011011010
0000010101101100
0000000011000111
1000000011101000
0000010010011010
1000000001100111
0000000000011100
0000000101110010
0000000010010001
1000000000100101
0000000011011111
1000000001110001
0000000011110000
1000000110110110
1000010000101111
1000001001011000
1000000101010111
1000000110110100
1000000101110011
1000000000111110
0000000000101010
0000000001110111
0000000001001110
0000000110001100
1000000000101110
0000001101111001
0000000010111010
0000000000000001
0000000010010111
0000011101011000
1000000001000101
0000010100100000
0000001110000101
0000000101110111
1000000000110110
1000000000101001
1000000100000011
0000000010001110
1000000100001100
0000000010100110
1000000010001111
1000000101000110
1000001110110100
1000001101101001
1000001011011100
1000000111000101
1000000101010001
1000000100011110
0000000001010010
0000000010100100
0000000001111110
0000000101110111
1000000010111000
0000010101101010
1000000011111010
1000000001001110
1000001000010001
0000010000101111
0000001110011101
0000001010011100
0000001000000111
1000001001110100
0000000010001001
1000000010111011
1000000000110111
1000000110000110
0000000000110000
0000000011011011
1000000100010101
1000001011110110
1000000110001011
1000000010100101
0000000000101001
1000000010111111
0000000010110001
1000000110001001
1000000001101001
0000000111011100
0000000000001110
0000001001000010
0000010000000000
0000000010101111
0000000001100100
1000000001010000
0000000011101111
0000010010110110
0000001110000000
0000000101101101
1000000001111001
1000000011110010
0000000010010111
1000000101101010
0000000111010000
1000000111011100
1000000111001100
1000000001110110
0000000010001010
0000000000100010
0000000100001011
0000000100101000
0000001011111110
0000000011101011
0000000001000000
0000000101101000
0000000001010000
0000000001110101
0000000011111010
0000000110001001
0000000100000001
1000000110111101
1000000111101011
0000000011101001
1000000110101000
0000000010111011
0000010000011011
0000000011000110
1000001000001001
1000000111011001
0000000000110010
0000000010011111
0000000010100101
1000000010101101
0000000011000111
0000001010000010
1000000010011100
1000001010000010
1000000111000000
1000000110000110
1000000011101100
1000000010101000
0000001000111111
0000001011011001
0000001001000100
0000000101000100
0000000000001000
0000000100000110
0000001011001101
0000000110100010
1000010011000000
1000000000110000
1000000101010001
1000001011100100
0000000000011010
1000000011001101
0000000000010010
0000000101000010
0000000011010111
0000000001110101
1000000001001000
0000000000011100
1000000001110101
1000000000111110
1000001101011010
1000001110111000
1000001000101001
1000000010001010
0000000001101011
1000000101100111
1000000001111010
0000000110101010
0000000001111001
0000001011000011
0000001100010011
0000001100001100
0000011000000011
0000000100010001
1000010011000011
1000000000010011
0000000010001000
0000001011101100
1000001111100010
0000000101100110
1000001000110011
0000000010101101
0000000001010000
1000000000100000
1000000001010111
0000000101011101
1000000001000101
1000001000001000
0000000110101010
1000001000011101
1000000100001000
1000001100001011
1000000111001111
1000000111000011
1000001000100011
0000000100011100
1000000000100000
1000000001111001
0000000100010100
0000000100000000
0000000001011101
1000000101011101
1000010000101010
1000000000100100
0000001010011010
1000000101101110
1000001000100100
0000001111010011
0000000101010011
0000000111101100
0000010001110011
0000000100001100
0000000100100101
0000001011100000
0000000110101111
0000001001011111
0000000000010101
1000000000011111
1000000000101100
1000000100101111
1000000011011100
1000000110000100
1000000010001000
0000000000001110
1000001101100110
0000000000010000
1000000010001110
0000000110100101
1000000001010111
1000000101111101
0000000011111010
0000001010001010
0000000111010001
1000000100100111
0000001010110100
0000001100100010
0000010101110011
0000001010101101
0000010000011111
0000010000100101
0000011000001111
0000001100100110
0000000111101110
0000000000111010
0000000000011011
0000000110000110
0000000100011000
1000000010100000
0000000111101001
0000000001110111
1000000011111001
1000000111101100
1000000011110011
0000000100100011
0000000100010111
0000000101010111
1000001010011111
1000011011111110
1000000011001000
0000001001010111
0000001001110010
0000000111101110
0000011110000111
0000001001001010
0000001000011101
0000000100110110
0000010100001100
0000010110010010
0000011101101100
0000011000000111
0000001111010100
0000010000101010
0000000011110101
0000000000111010
0000000111010011
0000000101000001
0000000101011011
1000000010100100
1000000100101010
1000001010111001
1000000010000110
0000000001000010
0000001011110111
1000000001000000
1000001001101111
0000001001010100
1000000100000101
1000000100100110
0000000100110100
0000000101101111
0000001010101010
1000000101010001
0000000100110100
1000000100010001
1000000100100101
0000000110100100
0000010001100111
0000011100001111
0000010110100110
0000011100011100
0000010001110011
0000001001100111
0000001010010011
1000000011010111
1000000100110110
1000000000100101
1000000010010110
1000000010111001
0000000111101010
0000001011001111
1000000111101110
0000000011001010
1000000001101111
1000010000011111
1000001011111110
0000000001100101
0000000011000001
0000001111101111
1000000111001011
1000000010100100
1000000001100010
1000010010000110
1000010011110111
1000001100011111
0000000010001101
0000000110000110
0000001110000001
0000010001110011
0000001010011000
0000000101001000
0000000110001101
1000000101110001
1000000110010100
1000000001100111
1000000000100101
1000001000010111
1000000010010111
0000000011110110
0000000001010111
1000010001101110
1000000010011110
1000000010110000
1000001101101100
1000001100101100
1000000100000100
0000011011110001
1000001111010011
1000001100011110
1000010100110001
1000100000101110
1000100001101111
1000011011000011
1000010111000010
1000010010000010
0000000011010111
1000000110011100
0000000000111010
1000000010111000
0000000000001010
1000000010011011
1000000101010011
1000001001100001
1000000000110010
1000000001111011
1000000100110101
1000000001000001
0000000010011100
1000000100011101
0000000001000010
0000001101101110
1000001101100111
1000000011001101
1000010100000100
0000000010101111
1000001001011101
1000010111011001
1000011101000010
1000011001100101
1000011110000111
1000100101011100
1000100101000010
1000011111101101
1000001010111000
1000001110111000
1000000110010111
1000000011100011
0000000011011011
0000000111000110
1000000001001000
0000000010010011
1000000001000000
1000000110000101
1000000111110000
1000000101010001
1000000000101011
1000001000010100
0000000110110010
1000010001010110
0000000100011011
0000000000000011
0000000101010000
0000010011110100
0000000010110111
0000000001001001
1000001101001010
1000000100000001
1000000100010011
0000000000000100
1000000011111100
1000001001011100
1000000101100100
1000001010111110
0000000100101001
0000000000110001
0000000100011011
0000000110111011
0000001000111100
0000000101010000
0000000000010101
1000001001011011
0000000010111110
0000000010101010
0000001100101110
0000000010011111
0000000100000000
1000010010000100
0000001011001100
1000000010110100
0000001100001100
0000001110010100
0000000111000011
0000001011101010
1000000000110110
0000000000011011
0000000001010100
0000001011100010
0000000111111111
0000000011011001
0000000010011100
0000000011100110
0000000001110010
1000000010100001
0000000111111111
0000000001100111
0000000001111000
0000000010100101
1000000000111010
1000000010100011
0000000010010101
0000000101011110
0000000010110111
0000010000110101
0000010100100111
1000001010011011
1000000000010100
0000000011111010
0000001000010011
0000001101010000
0000000100000011
0000001111111100
0000000001111010
0000010000101110
0000000100101010
0000000011000001
0000000100101000
0000000011001101
0000001100010001
0000000000000111
0000000011111101
1000000010011001
1000000100100000
1000000101010010
0000000110010010
0000000000011010
1000000101010000
0000000010111111
1000001011101001
0000000001010101
0000001010101011
0000001000100001
0000010000000100
0000010110010100
1000000000011111
1000000001011011
0000000100011001
0000001001010111
0000000101100101
0000010100100110
0000010000100011
0000000110001001
0000001000011001
0000010101000001
0000001000010011
0000001011010110
0000001001000000
0000000101110011
0000000101001110
0000000111101111
0000000000111101
0000000100111101
0000000011101100
0000000100011011
1000000001001101
1000000100110101
1000000100100100
1000000111111111
0000000111110101
0000001010011110
0000010001001110
0000011011011100
1000000101001011
0000000000110110
1000000011110110
1000000011110010
0000001010011101
0000010001110111
0000000101110000
0000000110011110
0000000110011110
0000000110010000
0000001011001110
0000001000111111
0000000000001101
0000000001011000
0000001011000101
0000001100010010
0000000010110101
0000000001111011
1000000000011101
0000001010010101
1000000110111111
0000000010100101
0000000010000101
1000000011100111
0000010001011101
1000001011010000
0000000010101001
1000000110000100
0000000001000001
1000000101000100
1000000100110010
0000000101101111
1000000000100111
1000000100001100
0000000010000111
1000001011000100
1000001100000001
1000001111010100
1000000110100001
1000011000110010
1000000011101011
0000000000010001
0000001001000001
1000001000001000
1000000000101001
0000010000110000
0000000010011001
0000000001101000
0000000011100101
1000000100101100
0000000000010100
0000010100000100
0000001101011110
0000001100110001
0000000011101010
1000001111001111
0000000001111010
1000000010010111
1000000000000010
0000000010000110
0000000110001100
0000011111100111
0000000000111010
1000000001111010
1000001011000100
1000001111100000
1000010010010010
1000001011111010
1000000100000011
0000000001000111
1000000010111101
1000000000111011
0000001010100011
0000000100010011
1000001011110001
1000000011111100
1000000000101001
0000001000101000
0000010100000001
0000000110110110
1000000010110101
1000000111101111
0000000101000001
0000000001010011
0000000010110101
0000000011010100
1000000001100100
0000000011010100
1000000100110100
1000001010011001
1000001111101110
1000000011001010
0000000011101010
0000000000010100
0000000001011010
0000001111111000
0000010000011110
0000001011100100
0000000000101111
1000000010010001
1000000001001110
1000001101100100
1000010000111110
1000000010100000
0000010000010011
0000010100111000
1000000101011011
1000000010111010
1000000011101000
0000000101001000
1000000011101100
1000000000101101
0000000011111111
